{
  "<pad>": 0,
  "<bos>": 1,
  "<eos>": 2,
  "<unk>": 3,
  "▁t": 4,
  "he": 5,
  "▁a": 6,
  "▁i": 7,
  "▁s": 8,
  "▁w": 9,
  "in": 10,
  "▁o": 11,
  "▁b": 12,
  "re": 13,
  "▁d": 14,
  "▁l": 15,
  "ha": 16,
  "▁m": 17,
  "▁g": 18,
  "▁the": 19,
  "▁c": 20,
  "ou": 21,
  "▁y": 22,
  "ll": 23,
  "ing": 24,
  "▁f": 25,
  "an": 26,
  "▁n": 27,
  "▁to": 28,
  "hi": 29,
  "▁I": 30,
  "er": 31,
  "ea": 32,
  "st": 33,
  "▁p": 34,
  "ed": 35,
  "on": 36,
  "ot": 37,
  "et": 38,
  "ck": 39,
  "▁lo": 40,
  "▁he": 41,
  "hat": 42,
  "nd": 43,
  "▁it": 44,
  "or": 45,
  "▁u": 46,
  "▁on": 47,
  "ro": 48,
  "▁we": 49,
  "es": 50,
  "ut": 51,
  "▁you": 52,
  "ow": 53,
  "▁and": 54,
  "me": 55,
  "▁in": 56,
  "gh": 57,
  "it": 58,
  "..": 59,
  "▁lol": 60,
  "▁ha": 61,
  "▁yea": 62,
  "ve": 63,
  "▁so": 64,
  "▁yeah": 65,
  "▁that": 66,
  "ke": 67,
  "▁is": 68,
  "▁th": 69,
  "▁j": 70,
  "▁e": 71,
  "▁me": 72,
  "se": 73,
  "ght": 74,
  "▁ju": 75,
  "▁of": 76,
  "hit": 77,
  "▁wa": 78,
  "▁up": 79,
  "ce": 80,
  "his": 81,
  "▁go": 82,
  "ld": 83,
  "le": 84,
  "▁can": 85,
  "ight": 86,
  "▁just": 87,
  "uck": 88,
  "▁this": 89,
  "▁be": 90,
  "▁st": 91,
  "ay": 92,
  "▁r": 93,
  "▁do": 94,
  "at": 95,
  "▁re": 96,
  "▁h": 97,
  "▁fuck": 98,
  "ar": 99,
  "▁li": 100,
  "▁for": 101,
  "▁get": 102,
  "ould": 103,
  "ad": 104,
  "na": 105,
  "am": 106,
  "▁ne": 107,
  "▁shit": 108,
  "nt": 109,
  "▁not": 110,
  "ee": 111,
  "id": 112,
  "▁bu": 113,
  "▁but": 114,
  "▁like": 115,
  "...": 116,
  "▁here": 117,
  "ill": 118,
  "ack": 119,
  "ly": 120,
  "▁got": 121,
  "▁was": 122,
  "▁mo": 123,
  "▁k": 124,
  "ch": 125,
  "is": 126,
  "all": 127,
  "ver": 128,
  "▁out": 129,
  "▁my": 130,
  "al": 131,
  "▁some": 132,
  "ag": 133,
  "▁+": 134,
  "▁tr": 135,
  "▁man": 136,
  "▁if": 137,
  "ink": 138,
  "▁oh": 139,
  "▁at": 140,
  "▁no": 141,
  "od": 142,
  "▁what": 143,
  "▁let": 144,
  "▁co": 145,
  "▁S": 146,
  "▁need": 147,
  "▁gon": 148,
  "▁an": 149,
  "▁there": 150,
  "ab": 151,
  "▁have": 152,
  "▁ro": 153,
  "ith": 154,
  "pe": 155,
  "▁gonna": 156,
  "▁sh": 157,
  "ess": 158,
  "un": 159,
  "▁all": 160,
  "▁or": 161,
  "ff": 162,
  "▁whe": 163,
  "▁don": 164,
  "▁with": 165,
  "▁think": 166,
  "her": 167,
  "▁gu": 168,
  "ally": 169,
  "il": 170,
  "ear": 171,
  "▁as": 172,
  "▁they": 173,
  "ast": 174,
  "▁hi": 175,
  "ant": 176,
  "▁dam": 177,
  "▁su": 178,
  "▁are": 179,
  "▁ok": 180,
  "▁sl": 181,
  "op": 182,
  "▁tho": 183,
  "▁1": 184,
  "▁she": 185,
  "▁back": 186,
  "en": 187,
  "▁see": 188,
  "▁cl": 189,
  "▁one": 190,
  "as": 191,
  "▁cha": 192,
  "▁pro": 193,
  "▁should": 194,
  "ice": 195,
  "▁these": 196,
  "ir": 197,
  "mp": 198,
  "▁now": 199,
  "▁good": 200,
  "▁4": 201,
  "▁ti": 202,
  "hing": 203,
  "ic": 204,
  "ep": 205,
  "▁D": 206,
  "ec": 207,
  "▁fucking": 208,
  "ting": 209,
  "▁him": 210,
  "out": 211,
  "▁gr": 212,
  "▁too": 213,
  "▁damn": 214,
  "ull": 215,
  "▁try": 216,
  "▁2": 217,
  "ain": 218,
  "dd": 219,
  "▁sa": 220,
  "▁T": 221,
  "▁right": 222,
  "ie": 223,
  "▁le": 224,
  "▁al": 225,
  "▁hit": 226,
  "one": 227,
  "ick": 228,
  "ough": 229,
  "ur": 230,
  "▁dro": 231,
  "ind": 232,
  "own": 233,
  "▁guess": 234,
  "▁could": 235,
  "ers": 236,
  "▁sp": 237,
  "▁did": 238,
  "ac": 239,
  "rm": 240,
  "▁H": 241,
  "▁drop": 242,
  "▁when": 243,
  "▁ab": 244,
  "▁want": 245,
  "▁any": 246,
  "▁more": 247,
  "▁F": 248,
  "▁ag": 249,
  "▁us": 250,
  "▁nice": 251,
  "▁A": 252,
  "ter": 253,
  "▁slow": 254,
  "and": 255,
  "▁C": 256,
  "▁wor": 257,
  "▁down": 258,
  "▁then": 259,
  "▁ke": 260,
  "▁them": 261,
  "▁off": 262,
  "▁B": 263,
  "▁P": 264,
  "▁ma": 265,
  "el": 266,
  "om": 267,
  "▁3": 268,
  "▁dr": 269,
  "▁kill": 270,
  "▁wh": 271,
  "▁her": 272,
  "▁time": 273,
  "mm": 274,
  "▁pl": 275,
  "be": 276,
  "ok": 277,
  "▁hell": 278,
  "▁haha": 279,
  "lo": 280,
  "▁bit": 281,
  "▁how": 282,
  "▁over": 283,
  "▁sure": 284,
  "▁kn": 285,
  "▁mana": 286,
  "ig": 287,
  "pp": 288,
  "▁5": 289,
  "▁dis": 290,
  "▁v": 291,
  "▁mu": 292,
  "▁run": 293,
  "si": 294,
  "▁hehe": 295,
  "▁de": 296,
  "▁charm": 297,
  "▁ca": 298,
  "▁budd": 299,
  "▁bo": 300,
  "qu": 301,
  "aw": 302,
  "▁may": 303,
  "▁does": 304,
  "▁bro": 305,
  "age": 306,
  "▁about": 307,
  "▁aight": 308,
  "▁R": 309,
  "ail": 310,
  "▁had": 311,
  "hh": 312,
  "▁W": 313,
  "ri": 314,
  "▁buddy": 315,
  "th": 316,
  "ard": 317,
  "▁du": 318,
  "▁te": 319,
  "ound": 320,
  "▁buff": 321,
  "▁ya": 322,
  "▁those": 323,
  "▁M": 324,
  "ven": 325,
  "▁pull": 326,
  "▁sw": 327,
  "▁pet": 328,
  "▁=": 329,
  "▁ta": 330,
  "▁min": 331,
  "▁sec": 332,
  "PC": 333,
  "ion": 334,
  "▁ac": 335,
  "▁br": 336,
  "red": 337,
  "ty": 338,
  "▁im": 339,
  "ol": 340,
  "▁af": 341,
  "ther": 342,
  "▁loot": 343,
  "ge": 344,
  "PCT": 345,
  "▁ho": 346,
  "ort": 347,
  "▁your": 348,
  "mb": 349,
  "▁ea": 350,
  "▁bet": 351,
  "▁really": 352,
  "▁maybe": 353,
  "fe": 354,
  "▁na": 355,
  "▁still": 356,
  "▁lea": 357,
  "▁though": 358,
  "▁+4": 359,
  "▁know": 360,
  "▁will": 361,
  "ul": 362,
  "ate": 363,
  "▁ex": 364,
  "king": 365,
  "▁won": 366,
  "▁grab": 367,
  "▁would": 368,
  "▁som": 369,
  "▁ever": 370,
  "rd": 371,
  "us": 372,
  "ks": 373,
  "han": 374,
  "▁keep": 375,
  "ger": 376,
  "▁Hail": 377,
  "▁prob": 378,
  "▁N": 379,
  "▁G": 380,
  "mo": 381,
  "▁bad": 382,
  "▁other": 383,
  "▁where": 384,
  "▁en": 385,
  "▁mean": 386,
  "▁much": 387,
  "▁even": 388,
  "▁somet": 389,
  "de": 390,
  "▁L": 391,
  "awn": 392,
  "▁sc": 393,
  "▁fro": 394,
  "▁hat": 395,
  "▁dont": 396,
  "ish": 397,
  "▁gi": 398,
  "▁well": 399,
  "▁E": 400,
  "▁lets": 401,
  "▁might": 402,
  "way": 403,
  "▁int": 404,
  "eel": 405,
  "▁res": 406,
  "ady": 407,
  "▁em": 408,
  "ably": 409,
  "other": 410,
  "▁hate": 411,
  "▁going": 412,
  "ss": 413,
  "up": 414,
  "are": 415,
  "▁di": 416,
  "ance": 417,
  "▁from": 418,
  "▁thing": 419,
  "ker": 420,
  "▁po": 421,
  "▁probably": 422,
  "▁way": 423,
  "▁again": 424,
  "▁every": 425,
  "▁z": 426,
  "ace": 427,
  "▁fl": 428,
  "▁pop": 429,
  "▁pre": 430,
  "ually": 431,
  "▁something": 432,
  "agg": 433,
  "ead": 434,
  "▁whi": 435,
  "▁why": 436,
  "▁getting": 437,
  "▁cr": 438,
  "▁che": 439,
  "▁nah": 440,
  "▁feel": 441,
  "▁than": 442,
  "▁act": 443,
  "▁fast": 444,
  "▁FD": 445,
  "▁PR": 446,
  "▁qu": 447,
  "▁has": 448,
  "ta": 449,
  "ue": 450,
  "oth": 451,
  "tle": 452,
  "use": 453,
  "▁-": 454,
  "lls": 455,
  "oup": 456,
  "▁+3": 457,
  "▁tw": 458,
  "▁mob": 459,
  "▁room": 460,
  "▁lit": 461,
  "▁into": 462,
  "aggy": 463,
  "▁once": 464,
  "▁id": 465,
  "▁ass": 466,
  "ts": 467,
  "anna": 468,
  "▁wanna": 469,
  "▁damage": 470,
  "mme": 471,
  "▁fi": 472,
  "ling": 473,
  "ine": 474,
  "▁heh": 475,
  "ip": 476,
  "▁come": 477,
  "os": 478,
  "▁am": 479,
  "▁fe": 480,
  "▁sk": 481,
  "atch": 482,
  "▁bre": 483,
  "▁clear": 484,
  "▁better": 485,
  "ite": 486,
  "▁+2": 487,
  "▁wait": 488,
  "▁work": 489,
  "xt": 490,
  "▁ar": 491,
  "▁been": 492,
  "▁didn": 493,
  "▁last": 494,
  "ble": 495,
  "ide": 496,
  "▁vo": 497,
  "▁mez": 498,
  "▁sna": 499,
  "▁little": 500,
  "ry": 501,
  "▁Y": 502,
  "int": 503,
  "orn": 504,
  "▁hard": 505,
  "▁heal": 506,
  "▁safe": 507,
  "▁doing": 508,
  "▁gotta": 509,
  "ms": 510,
  "ass": 511,
  "▁bl": 512,
  "▁day": 513,
  "▁look": 514,
  "ap": 515,
  "ft": 516,
  "der": 517,
  "▁hou": 518,
  "▁take": 519,
  "ots": 520,
  "▁ah": 521,
  "▁put": 522,
  "▁who": 523,
  "▁fight": 524,
  "ank": 525,
  "ore": 526,
  "night": 527,
  "thing": 528,
  "▁were": 529,
  "▁\"": 530,
  "▁6": 531,
  "ought": 532,
  "▁load": 533,
  "▁least": 534,
  "tty": 535,
  "▁guy": 536,
  "▁cast": 537,
  "▁zone": 538,
  "▁lemme": 539,
  "00": 540,
  "ves": 541,
  "▁ill": 542,
  "▁O": 543,
  "ade": 544,
  "lly": 545,
  "▁pretty": 546,
  "pen": 547,
  "ment": 548,
  "ntil": 549,
  "▁bea": 550,
  "▁play": 551,
  "▁until": 552,
  "tf": 553,
  "ame": 554,
  "kes": 555,
  "▁wtf": 556,
  "▁roll": 557,
  "▁bitch": 558,
  "▁around": 559,
  "ps": 560,
  "▁+5": 561,
  "▁dan": 562,
  "▁actually": 563,
  "ince": 564,
  "▁afk": 565,
  "▁ear": 566,
  "▁inv": 567,
  "▁move": 568,
  "▁night": 569,
  "▁ready": 570,
  "▁tonight": 571,
  "dy": 572,
  "nk": 573,
  "no": 574,
  "▁his": 575,
  "▁imp": 576,
  "▁use": 577,
  "▁tell": 578,
  "▁nothing": 579,
  "lf": 580,
  "▁str": 581,
  "▁yep": 582,
  "▁same": 583,
  "art": 584,
  "ats": 585,
  "row": 586,
  "able": 587,
  "▁next": 588,
  "▁only": 589,
  "▁port": 590,
  "vel": 591,
  "▁pr": 592,
  "▁un": 593,
  "ving": 594,
  "▁def": 595,
  "▁spe": 596,
  "▁chan": 597,
  "▁mobs": 598,
  "▁doesn": 599,
  "▁since": 600,
  "▁another": 601,
  "▁uh": 602,
  "▁uhh": 603,
  "▁buffs": 604,
  "▁patch": 605,
  "az": 606,
  "aci": 607,
  "mes": 608,
  "▁coff": 609,
  "▁resp": 610,
  "llshit": 611,
  "▁after": 612,
  "▁slowed": 613,
  "▁bullshit": 614,
  "ord": 615,
  "ped": 616,
  "▁call": 617,
  "▁prolly": 618,
  "▁X": 619,
  "ash": 620,
  "ste": 621,
  "▁cant": 622,
  "▁gole": 623,
  "▁dispe": 624,
  "▁naggy": 625,
  "ong": 626,
  "uff": 627,
  "▁god": 628,
  "▁two": 629,
  "▁mins": 630,
  "▁root": 631,
  "▁invis": 632,
  "▁spawn": 633,
  "FG": 634,
  "oo": 635,
  "ons": 636,
  "sts": 637,
  "ping": 638,
  "sive": 639,
  "▁dude": 640,
  "▁make": 641,
  "▁suck": 642,
  "▁coffee": 643,
  "ever": 644,
  "▁SFG": 645,
  "▁hmm": 646,
  "▁say": 647,
  "ive": 648,
  "▁yo": 649,
  "▁key": 650,
  "▁und": 651,
  "▁brea": 652,
  "▁drag": 653,
  "▁giant": 654,
  "▁level": 655,
  "▁respawn": 656,
  "▁thought": 657,
  "▁kk": 658,
  "▁wi": 659,
  "most": 660,
  "ning": 661,
  "▁end": 662,
  "▁idk": 663,
  "▁yup": 664,
  "▁forg": 665,
  "▁fucker": 666,
  "ca": 667,
  "lt": 668,
  "hed": 669,
  "ird": 670,
  "▁fo": 671,
  "▁pe": 672,
  "▁...": 673,
  "▁head": 674,
  "▁imps": 675,
  "▁cause": 676,
  "pt": 677,
  "▁x": 678,
  "▁=/": 679,
  "▁se": 680,
  "▁bug": 681,
  "▁mon": 682,
  "▁wea": 683,
  "▁disc": 684,
  "▁left": 685,
  "▁real": 686,
  "▁wish": 687,
  "▁yael": 688,
  "▁point": 689,
  "▁stand": 690,
  "▁almost": 691,
  "▁things": 692,
  "▁trying": 693,
  "pl": 694,
  "▁8": 695,
  "air": 696,
  "hie": 697,
  "irst": 698,
  "▁fear": 699,
  "▁full": 700,
  "▁paci": 701,
  "▁check": 702,
  "▁first": 703,
  "▁9": 704,
  "err": 705,
  "gro": 706,
  "▁50": 707,
  "▁Do": 708,
  "▁war": 709,
  "▁Xack": 710,
  "▁aggro": 711,
  "▁anything": 712,
  "av": 713,
  "▁V": 714,
  "▁aw": 715,
  "▁hp": 716,
  "▁big": 717,
  "▁boy": 718,
  "▁gre": 719,
  "▁hah": 720,
  "▁ran": 721,
  "▁hour": 722,
  "▁jump": 723,
  "▁void": 724,
  "▁group": 725,
  "▁while": 726,
  "ma": 727,
  "per": 728,
  "▁DoT": 729,
  "▁fin": 730,
  "▁mot": 731,
  "▁bard": 732,
  "▁peop": 733,
  "▁quick": 734,
  "▁J": 735,
  "ond": 736,
  "▁add": 737,
  "▁die": 738,
  "▁dun": 739,
  "▁rdy": 740,
  "▁spl": 741,
  "▁wonder": 742,
  "te": 743,
  "orm": 744,
  "▁10": 745,
  "▁lot": 746,
  "ation": 747,
  "▁game": 748,
  "▁voidling": 749,
  "ky": 750,
  "how": 751,
  "ist": 752,
  "ming": 753,
  "▁few": 754,
  "▁low": 755,
  "hield": 756,
  "ither": 757,
  "▁kind": 758,
  "▁reme": 759,
  "▁dunno": 760,
  "▁people": 761,
  "gr": 762,
  "man": 763,
  "mor": 764,
  "ure": 765,
  "urn": 766,
  "▁by": 767,
  "mber": 768,
  "▁yet": 769,
  "▁land": 770,
  "▁nope": 771,
  "▁okay": 772,
  "▁stay": 773,
  "▁golem": 774,
  "▁place": 775,
  "▁split": 776,
  "ix": 777,
  "let": 778,
  "▁We": 779,
  "▁ch": 780,
  "fore": 781,
  "▁dou": 782,
  "▁corn": 783,
  "▁before": 784,
  "▁danger": 785,
  "▁7": 786,
  "ful": 787,
  "ways": 788,
  "▁sha": 789,
  "▁show": 790,
  "▁stun": 791,
  "▁wind": 792,
  "ensive": 793,
  "▁never": 794,
  "▁start": 795,
  "▁thats": 796,
  "au": 797,
  "so": 798,
  "ark": 799,
  "ths": 800,
  "ute": 801,
  "▁AA": 802,
  "eric": 803,
  "ppen": 804,
  "▁per": 805,
  "▁top": 806,
  "ouple": 807,
  "▁went": 808,
  "morrow": 809,
  "▁always": 810,
  "▁corner": 811,
  "▁couple": 812,
  "▁forgot": 813,
  "▁happen": 814,
  "▁tomorrow": 815,
  "eet": 816,
  "nce": 817,
  "▁ST": 818,
  "▁fr": 819,
  "▁hu": 820,
  "pped": 821,
  "▁bout": 822,
  "▁being": 823,
  "▁bring": 824,
  "▁whole": 825,
  "▁stance": 826,
  "▁remember": 827,
  "▁whatever": 828,
  "ng": 829,
  "ose": 830,
  "▁xp": 831,
  "self": 832,
  "▁haste": 833,
  "ies": 834,
  "▁20": 835,
  "▁oo": 836,
  "bing": 837,
  "less": 838,
  "sist": 839,
  "▁Ice": 840,
  "▁Tal": 841,
  "▁arm": 842,
  "cause": 843,
  "haker": 844,
  "▁both": 845,
  "▁dumb": 846,
  "▁easi": 847,
  "▁stuff": 848,
  "▁undead": 849,
  "thshaker": 850,
  "▁because": 851,
  "▁*": 852,
  "▁K": 853,
  "azy": 854,
  "ush": 855,
  "lean": 856,
  "vent": 857,
  "▁tal": 858,
  "▁wat": 859,
  "erser": 860,
  "▁cool": 861,
  "▁give": 862,
  "▁said": 863,
  "▁clean": 864,
  "▁feels": 865,
  "▁sweet": 866,
  "gs": 867,
  "▁el": 868,
  "▁app": 869,
  "▁tag": 870,
  "▁ugh": 871,
  "▁came": 872,
  "▁days": 873,
  "▁inst": 874,
  "▁pick": 875,
  "▁proc": 876,
  "▁slay": 877,
  "▁cleric": 878,
  "bo": 879,
  "ody": 880,
  "zed": 881,
  "▁=(": 882,
  "▁bel": 883,
  "▁bur": 884,
  "▁chi": 885,
  "▁eat": 886,
  "ander": 887,
  "eared": 888,
  "▁away": 889,
  "▁gear": 890,
  "▁hold": 891,
  "▁lord": 892,
  "▁mind": 893,
  "▁scre": 894,
  "▁stri": 895,
  "▁temp": 896,
  "▁took": 897,
  "▁true": 898,
  "▁berser": 899,
  "▁damnit": 900,
  "▁shield": 901,
  "▁window": 902,
  "ct": 903,
  "if": 904,
  "act": 905,
  "day": 906,
  "▁15": 907,
  "▁Lo": 908,
  "ense": 909,
  "haha": 910,
  "here": 911,
  "lood": 912,
  "▁con": 913,
  "▁dat": 914,
  "▁its": 915,
  "▁rep": 916,
  "▁thr": 917,
  "▁chat": 918,
  "▁diff": 919,
  "▁else": 920,
  "▁hits": 921,
  "▁life": 922,
  "▁pers": 923,
  "▁upgr": 924,
  "▁wasn": 925,
  "▁click": 926,
  "▁makes": 927,
  "▁sound": 928,
  "▁weird": 929,
  "▁giants": 930,
  "▁": 931,
  "e": 932,
  "t": 933,
  "o": 934,
  "a": 935,
  "n": 936,
  "i": 937,
  "h": 938,
  "s": 939,
  "l": 940,
  "r": 941,
  "d": 942,
  "u": 943,
  "g": 944,
  "m": 945,
  "y": 946,
  "c": 947,
  "w": 948,
  "p": 949,
  "f": 950,
  "b": 951,
  "k": 952,
  ",": 953,
  "'": 954,
  "I": 955,
  ".": 956,
  "v": 957,
  "?": 958,
  "j": 959,
  "T": 960,
  "4": 961,
  "0": 962,
  "x": 963,
  "2": 964,
  "z": 965,
  "1": 966,
  "S": 967,
  "C": 968,
  "+": 969,
  "P": 970,
  "D": 971,
  "3": 972,
  "5": 973,
  "R": 974,
  "H": 975,
  "A": 976,
  "F": 977,
  "/": 978,
  "E": 979,
  "B": 980,
  "G": 981,
  "L": 982,
  "M": 983,
  "-": 984,
  "W": 985,
  "N": 986,
  "q": 987,
  "O": 988,
  ";": 989,
  "\"": 990,
  "=": 991,
  "6": 992,
  "!": 993,
  "9": 994,
  "*": 995,
  "7": 996,
  "8": 997,
  "Y": 998,
  "K": 999,
  "J": 1000,
  "V": 1001,
  "(": 1002,
  "X": 1003,
  "U": 1004,
  "~": 1005,
  "Q": 1006,
  ":": 1007,
  "Z": 1008,
  ")": 1009,
  ">": 1010,
  "`": 1011,
  "<": 1012,
  "[": 1013,
  "]": 1014,
  "^": 1015,
  "@": 1016,
  "$": 1017,
  "|": 1018,
  "#": 1019,
  "&": 1020,
  "_": 1021,
  "{": 1022,
  "}": 1023
}