<pad>	0
<bos>	0
<eos>	0
<unk>	0
▁t	-0
he	-1
▁a	-2
▁i	-3
▁s	-4
▁w	-5
in	-6
▁o	-7
▁b	-8
re	-9
▁d	-10
▁l	-11
ha	-12
▁m	-13
▁g	-14
▁the	-15
▁c	-16
ou	-17
▁y	-18
ll	-19
ing	-20
▁f	-21
an	-22
▁n	-23
▁to	-24
hi	-25
▁I	-26
er	-27
ea	-28
st	-29
▁p	-30
ed	-31
on	-32
ot	-33
et	-34
ck	-35
▁lo	-36
▁he	-37
hat	-38
nd	-39
▁it	-40
or	-41
▁u	-42
▁on	-43
ro	-44
▁we	-45
es	-46
ut	-47
▁you	-48
ow	-49
▁and	-50
me	-51
▁in	-52
gh	-53
it	-54
..	-55
▁lol	-56
▁ha	-57
▁yea	-58
ve	-59
▁so	-60
▁yeah	-61
▁that	-62
ke	-63
▁is	-64
▁th	-65
▁j	-66
▁e	-67
▁me	-68
se	-69
ght	-70
▁ju	-71
▁of	-72
hit	-73
▁wa	-74
▁up	-75
ce	-76
his	-77
▁go	-78
ld	-79
le	-80
▁can	-81
ight	-82
▁just	-83
uck	-84
▁this	-85
▁be	-86
▁st	-87
ay	-88
▁r	-89
▁do	-90
at	-91
▁re	-92
▁h	-93
▁fuck	-94
ar	-95
▁li	-96
▁for	-97
▁get	-98
ould	-99
ad	-100
na	-101
am	-102
▁ne	-103
▁shit	-104
nt	-105
▁not	-106
ee	-107
id	-108
▁bu	-109
▁but	-110
▁like	-111
...	-112
▁here	-113
ill	-114
ack	-115
ly	-116
▁got	-117
▁was	-118
▁mo	-119
▁k	-120
ch	-121
is	-122
all	-123
ver	-124
▁out	-125
▁my	-126
al	-127
▁some	-128
ag	-129
▁+	-130
▁tr	-131
▁man	-132
▁if	-133
ink	-134
▁oh	-135
▁at	-136
▁no	-137
od	-138
▁what	-139
▁let	-140
▁co	-141
▁S	-142
▁need	-143
▁gon	-144
▁an	-145
▁there	-146
ab	-147
▁have	-148
▁ro	-149
ith	-150
pe	-151
▁gonna	-152
▁sh	-153
ess	-154
un	-155
▁all	-156
▁or	-157
ff	-158
▁whe	-159
▁don	-160
▁with	-161
▁think	-162
her	-163
▁gu	-164
ally	-165
il	-166
ear	-167
▁as	-168
▁they	-169
ast	-170
▁hi	-171
ant	-172
▁dam	-173
▁su	-174
▁are	-175
▁ok	-176
▁sl	-177
op	-178
▁tho	-179
▁1	-180
▁she	-181
▁back	-182
en	-183
▁see	-184
▁cl	-185
▁one	-186
as	-187
▁cha	-188
▁pro	-189
▁should	-190
ice	-191
▁these	-192
ir	-193
mp	-194
▁now	-195
▁good	-196
▁4	-197
▁ti	-198
hing	-199
ic	-200
ep	-201
▁D	-202
ec	-203
▁fucking	-204
ting	-205
▁him	-206
out	-207
▁gr	-208
▁too	-209
▁damn	-210
ull	-211
▁try	-212
▁2	-213
ain	-214
dd	-215
▁sa	-216
▁T	-217
▁right	-218
ie	-219
▁le	-220
▁al	-221
▁hit	-222
one	-223
ick	-224
ough	-225
ur	-226
▁dro	-227
ind	-228
own	-229
▁guess	-230
▁could	-231
ers	-232
▁sp	-233
▁did	-234
ac	-235
rm	-236
▁H	-237
▁drop	-238
▁when	-239
▁ab	-240
▁want	-241
▁any	-242
▁more	-243
▁F	-244
▁ag	-245
▁us	-246
▁nice	-247
▁A	-248
ter	-249
▁slow	-250
and	-251
▁C	-252
▁wor	-253
▁down	-254
▁then	-255
▁ke	-256
▁them	-257
▁off	-258
▁B	-259
▁P	-260
▁ma	-261
el	-262
om	-263
▁3	-264
▁dr	-265
▁kill	-266
▁wh	-267
▁her	-268
▁time	-269
mm	-270
▁pl	-271
be	-272
ok	-273
▁hell	-274
▁haha	-275
lo	-276
▁bit	-277
▁how	-278
▁over	-279
▁sure	-280
▁kn	-281
▁mana	-282
ig	-283
pp	-284
▁5	-285
▁dis	-286
▁v	-287
▁mu	-288
▁run	-289
si	-290
▁hehe	-291
▁de	-292
▁charm	-293
▁ca	-294
▁budd	-295
▁bo	-296
qu	-297
aw	-298
▁may	-299
▁does	-300
▁bro	-301
age	-302
▁about	-303
▁aight	-304
▁R	-305
ail	-306
▁had	-307
hh	-308
▁W	-309
ri	-310
▁buddy	-311
th	-312
ard	-313
▁du	-314
▁te	-315
ound	-316
▁buff	-317
▁ya	-318
▁those	-319
▁M	-320
ven	-321
▁pull	-322
▁sw	-323
▁pet	-324
▁=	-325
▁ta	-326
▁min	-327
▁sec	-328
PC	-329
ion	-330
▁ac	-331
▁br	-332
red	-333
ty	-334
▁im	-335
ol	-336
▁af	-337
ther	-338
▁loot	-339
ge	-340
PCT	-341
▁ho	-342
ort	-343
▁your	-344
mb	-345
▁ea	-346
▁bet	-347
▁really	-348
▁maybe	-349
fe	-350
▁na	-351
▁still	-352
▁lea	-353
▁though	-354
▁+4	-355
▁know	-356
▁will	-357
ul	-358
ate	-359
▁ex	-360
king	-361
▁won	-362
▁grab	-363
▁would	-364
▁som	-365
▁ever	-366
rd	-367
us	-368
ks	-369
han	-370
▁keep	-371
ger	-372
▁Hail	-373
▁prob	-374
▁N	-375
▁G	-376
mo	-377
▁bad	-378
▁other	-379
▁where	-380
▁en	-381
▁mean	-382
▁much	-383
▁even	-384
▁somet	-385
de	-386
▁L	-387
awn	-388
▁sc	-389
▁fro	-390
▁hat	-391
▁dont	-392
ish	-393
▁gi	-394
▁well	-395
▁E	-396
▁lets	-397
▁might	-398
way	-399
▁int	-400
eel	-401
▁res	-402
ady	-403
▁em	-404
ably	-405
other	-406
▁hate	-407
▁going	-408
ss	-409
up	-410
are	-411
▁di	-412
ance	-413
▁from	-414
▁thing	-415
ker	-416
▁po	-417
▁probably	-418
▁way	-419
▁again	-420
▁every	-421
▁z	-422
ace	-423
▁fl	-424
▁pop	-425
▁pre	-426
ually	-427
▁something	-428
agg	-429
ead	-430
▁whi	-431
▁why	-432
▁getting	-433
▁cr	-434
▁che	-435
▁nah	-436
▁feel	-437
▁than	-438
▁act	-439
▁fast	-440
▁FD	-441
▁PR	-442
▁qu	-443
▁has	-444
ta	-445
ue	-446
oth	-447
tle	-448
use	-449
▁-	-450
lls	-451
oup	-452
▁+3	-453
▁tw	-454
▁mob	-455
▁room	-456
▁lit	-457
▁into	-458
aggy	-459
▁once	-460
▁id	-461
▁ass	-462
ts	-463
anna	-464
▁wanna	-465
▁damage	-466
mme	-467
▁fi	-468
ling	-469
ine	-470
▁heh	-471
ip	-472
▁come	-473
os	-474
▁am	-475
▁fe	-476
▁sk	-477
atch	-478
▁bre	-479
▁clear	-480
▁better	-481
ite	-482
▁+2	-483
▁wait	-484
▁work	-485
xt	-486
▁ar	-487
▁been	-488
▁didn	-489
▁last	-490
ble	-491
ide	-492
▁vo	-493
▁mez	-494
▁sna	-495
▁little	-496
ry	-497
▁Y	-498
int	-499
orn	-500
▁hard	-501
▁heal	-502
▁safe	-503
▁doing	-504
▁gotta	-505
ms	-506
ass	-507
▁bl	-508
▁day	-509
▁look	-510
ap	-511
ft	-512
der	-513
▁hou	-514
▁take	-515
ots	-516
▁ah	-517
▁put	-518
▁who	-519
▁fight	-520
ank	-521
ore	-522
night	-523
thing	-524
▁were	-525
▁"	-526
▁6	-527
ought	-528
▁load	-529
▁least	-530
tty	-531
▁guy	-532
▁cast	-533
▁zone	-534
▁lemme	-535
00	-536
ves	-537
▁ill	-538
▁O	-539
ade	-540
lly	-541
▁pretty	-542
pen	-543
ment	-544
ntil	-545
▁bea	-546
▁play	-547
▁until	-548
tf	-549
ame	-550
kes	-551
▁wtf	-552
▁roll	-553
▁bitch	-554
▁around	-555
ps	-556
▁+5	-557
▁dan	-558
▁actually	-559
ince	-560
▁afk	-561
▁ear	-562
▁inv	-563
▁move	-564
▁night	-565
▁ready	-566
▁tonight	-567
dy	-568
nk	-569
no	-570
▁his	-571
▁imp	-572
▁use	-573
▁tell	-574
▁nothing	-575
lf	-576
▁str	-577
▁yep	-578
▁same	-579
art	-580
ats	-581
row	-582
able	-583
▁next	-584
▁only	-585
▁port	-586
vel	-587
▁pr	-588
▁un	-589
ving	-590
▁def	-591
▁spe	-592
▁chan	-593
▁mobs	-594
▁doesn	-595
▁since	-596
▁another	-597
▁uh	-598
▁uhh	-599
▁buffs	-600
▁patch	-601
az	-602
aci	-603
mes	-604
▁coff	-605
▁resp	-606
llshit	-607
▁after	-608
▁slowed	-609
▁bullshit	-610
ord	-611
ped	-612
▁call	-613
▁prolly	-614
▁X	-615
ash	-616
ste	-617
▁cant	-618
▁gole	-619
▁dispe	-620
▁naggy	-621
ong	-622
uff	-623
▁god	-624
▁two	-625
▁mins	-626
▁root	-627
▁invis	-628
▁spawn	-629
FG	-630
oo	-631
ons	-632
sts	-633
ping	-634
sive	-635
▁dude	-636
▁make	-637
▁suck	-638
▁coffee	-639
ever	-640
▁SFG	-641
▁hmm	-642
▁say	-643
ive	-644
▁yo	-645
▁key	-646
▁und	-647
▁brea	-648
▁drag	-649
▁giant	-650
▁level	-651
▁respawn	-652
▁thought	-653
▁kk	-654
▁wi	-655
most	-656
ning	-657
▁end	-658
▁idk	-659
▁yup	-660
▁forg	-661
▁fucker	-662
ca	-663
lt	-664
hed	-665
ird	-666
▁fo	-667
▁pe	-668
▁...	-669
▁head	-670
▁imps	-671
▁cause	-672
pt	-673
▁x	-674
▁=/	-675
▁se	-676
▁bug	-677
▁mon	-678
▁wea	-679
▁disc	-680
▁left	-681
▁real	-682
▁wish	-683
▁yael	-684
▁point	-685
▁stand	-686
▁almost	-687
▁things	-688
▁trying	-689
pl	-690
▁8	-691
air	-692
hie	-693
irst	-694
▁fear	-695
▁full	-696
▁paci	-697
▁check	-698
▁first	-699
▁9	-700
err	-701
gro	-702
▁50	-703
▁Do	-704
▁war	-705
▁Xack	-706
▁aggro	-707
▁anything	-708
av	-709
▁V	-710
▁aw	-711
▁hp	-712
▁big	-713
▁boy	-714
▁gre	-715
▁hah	-716
▁ran	-717
▁hour	-718
▁jump	-719
▁void	-720
▁group	-721
▁while	-722
ma	-723
per	-724
▁DoT	-725
▁fin	-726
▁mot	-727
▁bard	-728
▁peop	-729
▁quick	-730
▁J	-731
ond	-732
▁add	-733
▁die	-734
▁dun	-735
▁rdy	-736
▁spl	-737
▁wonder	-738
te	-739
orm	-740
▁10	-741
▁lot	-742
ation	-743
▁game	-744
▁voidling	-745
ky	-746
how	-747
ist	-748
ming	-749
▁few	-750
▁low	-751
hield	-752
ither	-753
▁kind	-754
▁reme	-755
▁dunno	-756
▁people	-757
gr	-758
man	-759
mor	-760
ure	-761
urn	-762
▁by	-763
mber	-764
▁yet	-765
▁land	-766
▁nope	-767
▁okay	-768
▁stay	-769
▁golem	-770
▁place	-771
▁split	-772
ix	-773
let	-774
▁We	-775
▁ch	-776
fore	-777
▁dou	-778
▁corn	-779
▁before	-780
▁danger	-781
▁7	-782
ful	-783
ways	-784
▁sha	-785
▁show	-786
▁stun	-787
▁wind	-788
ensive	-789
▁never	-790
▁start	-791
▁thats	-792
au	-793
so	-794
ark	-795
ths	-796
ute	-797
▁AA	-798
eric	-799
ppen	-800
▁per	-801
▁top	-802
ouple	-803
▁went	-804
morrow	-805
▁always	-806
▁corner	-807
▁couple	-808
▁forgot	-809
▁happen	-810
▁tomorrow	-811
eet	-812
nce	-813
▁ST	-814
▁fr	-815
▁hu	-816
pped	-817
▁bout	-818
▁being	-819
▁bring	-820
▁whole	-821
▁stance	-822
▁remember	-823
▁whatever	-824
ng	-825
ose	-826
▁xp	-827
self	-828
▁haste	-829
ies	-830
▁20	-831
▁oo	-832
bing	-833
less	-834
sist	-835
▁Ice	-836
▁Tal	-837
▁arm	-838
cause	-839
haker	-840
▁both	-841
▁dumb	-842
▁easi	-843
▁stuff	-844
▁undead	-845
thshaker	-846
▁because	-847
▁*	-848
▁K	-849
azy	-850
ush	-851
lean	-852
vent	-853
▁tal	-854
▁wat	-855
erser	-856
▁cool	-857
▁give	-858
▁said	-859
▁clean	-860
▁feels	-861
▁sweet	-862
gs	-863
▁el	-864
▁app	-865
▁tag	-866
▁ugh	-867
▁came	-868
▁days	-869
▁inst	-870
▁pick	-871
▁proc	-872
▁slay	-873
▁cleric	-874
bo	-875
ody	-876
zed	-877
▁=(	-878
▁bel	-879
▁bur	-880
▁chi	-881
▁eat	-882
ander	-883
eared	-884
▁away	-885
▁gear	-886
▁hold	-887
▁lord	-888
▁mind	-889
▁scre	-890
▁stri	-891
▁temp	-892
▁took	-893
▁true	-894
▁berser	-895
▁damnit	-896
▁shield	-897
▁window	-898
ct	-899
if	-900
act	-901
day	-902
▁15	-903
▁Lo	-904
ense	-905
haha	-906
here	-907
lood	-908
▁con	-909
▁dat	-910
▁its	-911
▁rep	-912
▁thr	-913
▁chat	-914
▁diff	-915
▁else	-916
▁hits	-917
▁life	-918
▁pers	-919
▁upgr	-920
▁wasn	-921
▁click	-922
▁makes	-923
▁sound	-924
▁weird	-925
▁giants	-926
▁	-927
e	-928
t	-929
o	-930
a	-931
n	-932
i	-933
h	-934
s	-935
l	-936
r	-937
d	-938
u	-939
g	-940
m	-941
y	-942
c	-943
w	-944
p	-945
f	-946
b	-947
k	-948
,	-949
'	-950
I	-951
.	-952
v	-953
?	-954
j	-955
T	-956
4	-957
0	-958
x	-959
2	-960
z	-961
1	-962
S	-963
C	-964
+	-965
P	-966
D	-967
3	-968
5	-969
R	-970
H	-971
A	-972
F	-973
/	-974
E	-975
B	-976
G	-977
L	-978
M	-979
-	-980
W	-981
N	-982
q	-983
O	-984
;	-985
"	-986
=	-987
6	-988
!	-989
9	-990
*	-991
7	-992
8	-993
Y	-994
K	-995
J	-996
V	-997
(	-998
X	-999
U	-1000
~	-1001
Q	-1002
:	-1003
Z	-1004
)	-1005
>	-1006
`	-1007
<	-1008
[	-1009
]	-1010
^	-1011
@	-1012
$	-1013
|	-1014
#	-1015
&	-1016
_	-1017
{	-1018
}	-1019
